#include <cstddef>
namespace nano {
	unsigned char nano_bootstrap_weights_live[] = {0x00,0x00,0x00,0x00,0x00,0x00,0x00,0x00,0x00,0x00,0x00,0x00,0x00,0x00,0x79,0x18,0x29,0x12,0x60,0x49,0xb4,0x0d,0x17,0x55,0xc0,0xa1,0xc0,0x2b,0x71,0x64,0x6e,0xea,0xb9,0xe1,0x70,0x7c,0x16,0xe9,0x4b,0x47,0x10,0x0f,0x32,0x28,0xd5,0x9b,0x1e,0xb2,0x5a,0x7d,0x8a,0x8d,0x9f,0x3d,0xe9,0x59,0xeb,0x03,0x4e,0x3f,0xff,0xff,0xff,0xff,0x25,0x14,0x45,0x2a,0x97,0x8f,0x08,0xd1,0xcf,0x76,0xbb,0x40,0xb6,0xad,0x06,0x41,0x83,0xcf,0x27,0x5d,0x3c,0xc5,0xd3,0xe0,0x51,0x5d,0xc9,0x6e,0x21,0x12,0xad,0x4e,0x52,0xc1,0x3a,0xb9,0x30,0x61,0x0b,0x53,0x0a,0x7e,0x58,0xe0,0x00,0x00,0x00,0x00,0x36,0xb3,0xaf,0xc0,0x42,0xcc,0xb5,0x09,0x9d,0xc1,0x63,0xfa,0x2b,0xfe,0x42,0xd6,0xe4,0x86,0x99,0x1b,0x68,0x5e,0xaa,0xb0,0xdf,0x73,0x71,0x4d,0x91,0xa5,0x94,0x00,0x52,0xc1,0x3a,0xb9,0x30,0x61,0x0b,0x53,0x0a,0x7e,0x58,0xe0,0x00,0x00,0x00,0x00, 0x00};
	size_t nano_bootstrap_weights_live_size = sizeof(nano_bootstrap_weights_live) - 1;
}
