#include <cstddef>
namespace rai {
	unsigned char rai_bootstrap_weights[] = {0x00,0x00,0x00,0x00,0x00,0x00,0x00,0x00,0x00,0x00,0x00,0x00,0x00,0x6a,0x82,0x79,0xd9,0x5f,0xee,0xeb,0x8b,0x08,0xda,0x59,0x88,0x21,0xa7,0x21,0x99,0x14,0x1e,0xd7,0x5d,0x58,0x60,0xbc,0xcb,0x0c,0xa4,0xe0,0x41,0xe1,0x38,0x72,0x07,0xf9,0xc9,0x93,0x10,0x39,0x60,0x9d,0x35,0x91,0x65,0xa0,0xa8,0xd5,0x7d,0x54,0x8f,0x4f,0x7f,0xb0,0x23,0x99,0xa0,0x83,0xc6,0x00,0xaa,0x05,0x72,0xf5,0xe3,0x62,0x47,0xd9,0x78,0xfc,0xfc,0x84,0x04,0x05,0xf8,0xd4,0xb6,0xd3,0x31,0x61,0xc0,0x06,0x6a,0x55,0xf4,0x31,0x0c,0x2a,0x00,0xba,0x56,0xe9,0xb6,0x43,0x6e,0x80,0xce,0xaf,0x49,0x3c,0x67,0x8e,0xae,0x7a,0xc6,0x39,0x90,0xda,0xaa,0xf2,0xa6,0x9b,0xf1,0x1c,0x91,0x3b,0x92,0x88,0x44,0xbf,0x50,0x12,0x35,0x54,0x56,0xf2,0xf1,0x64,0x16,0x64,0x64,0x02,0x4b,0x29,0x0b,0xbe,0x69,0x67,0x30,0x56,0xae,0xd7,0xfd,0x06,0x3f,0x24,0x2f,0xfb,0xc1,0x1c,0xa3,0x0e,0x0a,0x32,0xed,0x41,0xc8,0x60,0x7a,0xa9,0x21,0x28,0x43,0x39,0x2e,0x85,0x3f,0xcb,0xcb,0x4e,0x7c,0xb1,0x94,0xe3,0x5c,0x94,0xf0,0x7f,0x91,0xde,0x59,0xef,0x07,0x42,0xde,0x3f,0x0f,0xc0,0xd4,0xff,0xe4,0x59,0xa9,0xa0,0xe8,0x08,0x4c,0x1b,0x67,0x55,0x6d,0x31,0xdd,0xfc,0x2a,0x44,0x0b,0xf6,0x14,0x75,0x01,0x44,0x9b,0x4c,0xb9,0x57,0x22,0x78,0xd0,0x34,0xee,0x68,0x6a,0x6b,0xee,0x29,0x85,0x16,0x81,0xdf,0x06,0x65,0x77,0x38,0x6e,0x46,0x1f,0xfb,0x68,0xc4,0x73,0x31,0xba,0xf0,0xb2,0x24,0xbd,0x62,0x67,0xd6,0xec,0xd8,0x03,0x83,0x27,0xd2,0xbc,0xc0,0x85,0x0b,0xdf,0x8f,0x56,0xec,0x04,0x14,0x91,0x22,0x07,0xe8,0x1b,0xcf,0x90,0xdf,0xac,0x8a,0x4a,0xaa,0x05,0x57,0x1c,0xcb,0x8e,0xd0,0xfe,0xce,0xf0,0x54,0xc6,0x18,0x79,0x27,0xd7,0xd3,0x63,0x23,0xc6,0xbc,0xca,0x82,0xbc,0x8e,0x88,0xaf,0x9f,0xd6,0x5c,0xaf,0xef,0x2e,0xe4,0x19,0x24,0x88,0x1b,0x41,0x1b,0xd1,0x08,0x55,0x16,0xd6,0x42,0x7e,0x9c,0x89,0x05,0x00,0xed,0xd6,0x06,0x27,0x8a,0x2d,0xb5,0x65,0xd1,0x26,0x84,0xb8,0x6a,0x00,0x5c,0x2f,0xbb,0x14,0x8e,0x00,0x6a,0x8e,0x8b,0xa7,0xa7,0x5d,0xd8,0x6c,0x9f,0xe0,0x0c,0x83,0xf5,0xff,0xdb,0xfd,0x76,0xea,0xa0,0x95,0x31,0x07,0x14,0x36,0xb6,0xaf,0x04,0x75,0x59,0x10,0x47,0x8e,0xe8,0x64,0x52,0x4e,0x3c,0x0e,0x72,0x6a,0xe8,0x71,0x52,0x08,0x4c,0xba,0x17,0x27,0xb0,0xd0,0xe2,0x3f,0x7a,0xea,0xb2,0x32,0x50,0x2e,0x4d,0x6b,0x9c,0x9c,0x13,0xf6,0x58,0x5e,0xcd,0xc0,0xd8,0xb5,0x6a,0xa9,0x8f,0xb7,0x03,0x97,0x44,0x0c,0xbe,0x67,0xf1,0x0b,0x8d,0x94,0x8e,0x49,0x24,0xaf,0x32,0x6e,0x9f,0xd3,0xe7,0x08,0x0d,0x4b,0x35,0x5a,0xe2,0xf0,0x30,0x41,0x9d,0xb1,0xc1,0xe0,0xdb,0xd8,0x02,0x03,0x43,0x47,0xf8,0x50,0xe9,0x95,0x84,0x69,0xc9,0x27,0x0a,0x8b,0x03,0x1e,0x6a,0x97,0xac,0x51,0xaa,0xb4,0xfa,0xdc,0xc5,0xf0,0x18,0xbf,0xff,0xfd,0x22,0x98,0xfa,0xb7,0xc6,0x10,0x58,0xe7,0x7e,0xa5,0x54,0xcb,0x93,0xed,0xee,0xda,0x06,0x92,0xcb,0xfc,0xc5,0x40,0xab,0x21,0x3b,0x28,0x36,0xb2,0x90,0x29,0xe2,0x3a,0x03,0x12,0xd6,0x73,0x44,0x52,0xff,0xa8,0xb8,0x30,0x04,0x54,0x8e,0x9b,0xd4,0x25,0x51,0x14,0xaa,0xd8,0x6a,0x39,0x08,0x97,0xd2,0xa9,0x1b,0x33,0xb9,0x31,0xb3,0xa5,0x9a,0x7d,0xf9,0xe6,0x3e,0xb3,0x69,0x4f,0x94,0x30,0x12,0x2f,0x56,0x22,0xae,0x50,0x02,0xfa,0x00,0x17,0x95,0x7d,0x46,0x95,0xae,0x78,0x0f,0x0d,0x4d,0xb2,0x26,0x85,0x27,0x08,0x85,0x12,0x1f,0xfc,0xc0,0xe4,0xdf,0xda,0x2f,0x29,0xc4,0x52,0x71,0x3f,0xa1,0x6b,0xf0,0x06,0xfb,0xcb,0x9b,0x89,0x0c,0x33,0x3e,0x91,0x48,0xd0,0xc8,0xbe,0x02,0x47,0x2e,0x56,0x0d,0xd5,0x33,0x71,0x7c,0x34,0xca,0x66,0x07,0x6e,0x09,0xff,0x3f,0xe8,0x0b,0x4b,0xc8,0x42,0xe8,0x2c,0x1c,0x18,0xab,0xfe,0xec,0x47,0xea,0x98,0x9e,0x63,0x95,0x3b,0xc8,0x2a,0xc4,0x11,0xf3,0x04,0xd1,0x38,0x33,0xd5,0x2a,0x56,0x02,0x11,0xb2,0x1f,0x42,0x55,0xee,0xfb,0xf0,0x68,0x07,0xf7,0x4c,0xe7,0x6b,0xcc,0x6a,0x0e,0x06,0x21,0x52,0xc3,0x32,0x64,0x6e,0xef,0x11,0x16,0x28,0xf1,0x09,0xa0,0x23,0x69,0xe6,0xce,0xc5,0x1f,0x5d,0xef,0x7d,0xe9,0xf3,0xf6,0xc4,0x60,0x00,0xd1,0x00,0xdf,0xd5,0x12,0x85,0xf5,0x4a,0xc6,0x35,0xec,0xa6,0x06,0xda,0x41,0x48,0x00,0x9c,0xa5,0x25,0xfe,0x7e,0x53,0x41,0x5f,0x3d,0xb8,0x78,0x4c,0xc5,0xcc,0xd0,0x3a,0xfb,0x8f,0xa5,0xf7,0x39,0x9b,0x3d,0x04,0x47,0x4d,0xe8,0xa3,0xbb,0x87,0x80,0x68,0x00,0xc3,0x07,0xf1,0x86,0xd7,0x56,0x21,0xbb,0x5c,0x55,0x8a,0xc0,0x00,0x00,0x00,0x9b,0xf6,0x9e,0x62,0xc3,0x2d,0x84,0xd3,0xa4,0x8a,0x1b,0xcd,0x0e,0x8c,0x46,0x04,0x02,0x10,0xaf,0x2f,0xd3,0xbe,0x43,0xc9,0xfb,0xea,0xea,0x93,0x3a,0x0a,0x31,0x47,0x00,0xba,0x4b,0xcb,0xe4,0x13,0xbf,0xd8,0x34,0xf7,0xa3,0x10,0xf4,0x00,0x00,0x00,0xc7,0x98,0xcf,0xf4,0xf1,0x13,0x12,0x04,0xf6,0x5c,0x4d,0x22,0xc3,0xe6,0x31,0x6f,0x26,0xf3,0x80,0xee,0x06,0x16,0xaa,0xdb,0xab,0xea,0x12,0x68,0xfd,0x75,0xfb,0x05,0x00,0xb2,0x7b,0x97,0x7a,0xd5,0x22,0xf1,0xe2,0xbe,0x29,0x24,0x21,0x40,0x66,0x00,0x12,0x43,0xb4,0x27,0x5d,0x7c,0xff,0x63,0xe3,0x22,0x9c,0x7c,0x40,0xae,0xae,0x8c,0x53,0xd6,0xf3,0x23,0x3d,0x43,0x9a,0xf3,0x17,0x78,0x65,0x75,0x1e,0x98,0x85,0xf1,0x00,0xae,0x3f,0x3b,0x43,0xd4,0x67,0xfb,0x2c,0xa5,0xd1,0x58,0x75,0xf8,0xe2,0x56,0x8e,0x9b,0x2b,0xfd,0x46,0xfd,0x8a,0x8e,0x91,0xbc,0xca,0x44,0xf2,0x4d,0x67,0x35,0x90,0x6e,0x55,0x7f,0x89,0xf3,0x76,0x91,0x48,0x00,0x79,0x33,0x21,0x55,0x3b,0x3f,0x00,0xac,0x6f,0xb8,0x08,0x85,0x53,0x88,0x8b,0xed,0x4d,0xf1,0x40,0x00,0x00,0x00,0xb0,0x52,0xbf,0xb4,0xe3,0x0e,0xf8,0x7f,0xc0,0x72,0xea,0xc7,0x0e,0xbe,0x6e,0x19,0xc3,0xec,0xd9,0x45,0x64,0xd4,0xb9,0x19,0xeb,0xc4,0x3e,0xbe,0x56,0xde,0xcd,0xc4,0x00,0xa5,0xa1,0x50,0x15,0xad,0xdd,0x4a,0x01,0x94,0x7b,0xf3,0xec,0x40,0x00,0x00,0x39,0x1e,0xcb,0x3a,0x6f,0x7a,0x6b,0x1b,0x1a,0x63,0x3e,0x37,0xee,0x8d,0xd4,0xc7,0x44,0x0d,0xfe,0x20,0xab,0x71,0xc6,0x3f,0xe1,0x2d,0xa7,0xea,0x49,0xf7,0xb4,0x20,0x00,0xa0,0x27,0x6f,0x31,0xa5,0x94,0x70,0xb8,0x6a,0x0d,0xf0,0xb2,0x15,0x36,0x00,0x13,0x60,0xde,0xdb,0xea,0xc1,0xc6,0x29,0x4b,0xe2,0x60,0xd0,0xbc,0x75,0x8e,0x1b,0x2e,0x34,0xd1,0x7c,0x4c,0x24,0xff,0xd5,0x33,0x8e,0x33,0x4a,0xcf,0x03,0xa2,0x23,0x00,0x95,0xc7,0x53,0x73,0x5f,0x56,0x90,0x78,0x60,0x0e,0x55,0x7b,0x61,0xb1,0x7e,0xf8,0xa5,0x67,0xaa,0x8c,0x6f,0x8d,0x27,0x49,0xf8,0x44,0x8a,0xa0,0x73,0x0e,0xc1,0x35,0xc8,0x41,0xeb,0xe9,0x7c,0xa8,0x16,0x65,0xb4,0x22,0xf4,0x97,0x4b,0xd0,0xe9,0x00,0x86,0x14,0xb1,0xaf,0xe8,0x79,0xaf,0x8b,0x00,0xb9,0x58,0x40,0xe0,0x10,0x00,0xe8,0x92,0x08,0xdd,0x03,0x8f,0xbb,0x26,0x99,0x87,0x68,0x96,0x21,0xd5,0x22,0x92,0xae,0x9c,0x35,0x94,0x1a,0x74,0x84,0x75,0x6e,0xcc,0xed,0x92,0xa6,0x50,0x93,0xba,0x00,0x81,0x2a,0x29,0x31,0x54,0x38,0x28,0x2a,0x48,0x14,0x72,0xf1,0x77,0xff,0xac,0xee,0x0e,0xa7,0x13,0x07,0x37,0xe2,0x3e,0x2e,0xde,0x6f,0xf0,0x37,0x4e,0x0d,0x93,0x62,0xb4,0xc9,0x13,0x5a,0x10,0x26,0x52,0x6c,0x57,0x1d,0x67,0x7b,0xf5,0x88,0x63,0x00,0x53,0xa5,0xcc,0x40,0x86,0xe4,0x1a,0x33,0x9d,0x7a,0x77,0xb8,0x80,0x00,0x00,0x89,0xf1,0x21,0x43,0xde,0xaa,0x4f,0x04,0xe7,0xa7,0xb6,0x78,0xb7,0x18,0xbc,0x9f,0x89,0xe9,0x00,0x52,0xee,0x0c,0x0f,0xe0,0x40,0x5e,0x14,0x87,0x75,0x4c,0x53,0x24,0x00,0x4e,0x8f,0xcb,0xcf,0xf6,0xf9,0x77,0x9d,0xf8,0xbe,0xf6,0x72,0x00,0x00,0x00,0x26,0x40,0xe1,0xa9,0x78,0xc8,0x17,0xe4,0x4f,0x9c,0x35,0x55,0xef,0x00,0x05,0x91,0x39,0x84,0x27,0x39,0x31,0x5e,0x23,0x03,0x32,0xf1,0x55,0x09,0x9d,0x9d,0x50,0x76,0x00,0x32,0x13,0x37,0xd0,0xfa,0x9c,0x29,0x7d,0xcf,0x6e,0xad,0x56,0x00,0x00,0x00,0x7e,0xa3,0x14,0x10,0x00,0x90,0x30,0x92,0xc5,0x44,0x9e,0x12,0x44,0xf7,0xd0,0xb6,0x99,0xa6,0x0b,0x1d,0xe3,0xf9,0x10,0xfa,0xf5,0xa0,0xa6,0xa9,0xed,0x0a,0xf1,0x02,0x00,0x27,0x6a,0xa9,0xc7,0x21,0x48,0x1f,0xc1,0xce,0x7b,0x6d,0x49,0xa9,0x74,0x42,0x27,0xba,0x45,0xea,0x9d,0xf9,0xb1,0xc8,0xc7,0xaf,0xce,0xe1,0x33,0x46,0x6a,0x3c,0x27,0xba,0xb4,0xdf,0x57,0x88,0x7d,0x98,0x3d,0x5f,0xcf,0xff,0xd0,0x16,0x85,0x8c,0x00,0x21,0xbc,0x9c,0x07,0x70,0xb5,0x84,0x47,0x39,0x6f,0x83,0x80,0x80,0x00,0x00,0x2b,0x99,0xe2,0x35,0x18,0x36,0x71,0xa4,0xf5,0xb1,0xea,0xac,0xb4,0xb8,0xa4,0x10,0x53,0x2d,0xf5,0xbd,0xca,0x1f,0xf4,0x7b,0x97,0x3f,0x71,0xd5,0x97,0x83,0x88,0x84,0x00,0x1c,0x0b,0xc5,0x9e,0x9a,0xfd,0x60,0xe9,0x12,0x79,0xe1,0x52,0xc5,0x7e,0x97,0x2f,0xd2,0x4d,0x80,0xec,0x04,0xe3,0xf2,0x62,0x86,0x34,0xe2,0xf5,0xf9,0x5c,0xb9,0x81,0x4e,0x14,0x4a,0xec,0x8c,0xec,0x9f,0xd2,0x81,0xf9,0xad,0xe3,0xb3,0x87,0x24,0x00,0x1b,0x98,0x97,0xc4,0x12,0x64,0x31,0xdd,0x23,0xd7,0x4a,0x35,0x40,0x00,0x00,0xc7,0x67,0xe2,0xd2,0x6f,0xdb,0xeb,0xa0,0x53,0x47,0xfc,0x9e,0xb4,0xc7,0x98,0x59,0x4a,0xac,0x8f,0xbc,0x5e,0x0d,0x3c,0x97,0xee,0x32,0x13,0x89,0xd4,0x7f,0xfa,0x03,0x00,0x1a,0x3b,0x0e,0x94,0x52,0xd7,0xb8,0xdb,0x58,0x02,0xf0,0x41,0x6a,0x2c,0x01,0x56,0x84,0x19,0x4d,0x26,0xb0,0x9a,0x3c,0xbb,0xad,0xb1,0x5e,0xf1,0x71,0x68,0x01,0x80,0x3d,0x15,0xa7,0x78,0x28,0x7b,0x53,0xc8,0x4f,0x6f,0x3d,0xc5,0xe1,0x06,0x64,0x00,0x13,0x6c,0x79,0xc1,0x45,0xd9,0x73,0xe7,0xa5,0xa2,0xc9,0xbb,0xc0,0x00,0x00,0x73,0x1f,0xbb,0x9f,0x5e,0x87,0x34,0x2b,0xa9,0x0b,0x44,0xf8,0x8d,0xd1,0x64,0xdf,0xd2,0x90,0x30,0x71,0x7d,0xb6,0x82,0xf5,0x84,0x79,0x22,0xc7,0x32,0x7f,0x0c,0xe8,0x00,0x13,0x59,0x71,0xb5,0xf3,0x28,0xf4,0xec,0x46,0x3a,0xcd,0x34,0x00,0x00,0x00,0xe0,0x75,0xab,0x29,0xd9,0x93,0x02,0x26,0x94,0x96,0xda,0x02,0xc2,0xf8,0x43,0xb3,0x7b,0x3e,0xc1,0xab,0xc3,0xf1,0xb4,0xab,0x50,0xa0,0x49,0x54,0x9e,0x64,0x67,0xd8,0x00,0x11,0x5d,0x49,0x60,0x17,0xb3,0xaf,0xd2,0xc6,0xa7,0x08,0x48,0xc0,0x00,0x00,0xd2,0xe8,0x75,0x77,0xed,0x0c,0x0c,0x95,0x42,0xca,0x8c,0x1a,0x0b,0x3a,0x0c,0x5b,0x5d,0xcf,0xa6,0xf3,0xab,0xe2,0xe6,0x0d,0xb3,0x11,0x98,0x2e,0x36,0xd2,0x59,0x8e,0x00,0x11,0x55,0x57,0xc4,0x41,0xac,0xf1,0x13,0x0c,0x82,0xb4,0x88,0x00,0x00,0x00,0x51,0x14,0x67,0x50,0xb8,0x9f,0x48,0x93,0x6a,0x28,0xa0,0xe3,0x36,0x74,0x6a,0xa3,0x3b,0xae,0x60,0x7d,0x34,0xdb,0xc0,0x9f,0xc9,0x4d,0xe4,0x5e,0xba,0xdd,0xba,0x73,0x00,0x11,0x2d,0x6e,0x35,0xfb,0x0d,0x6a,0x5d,0xc2,0xce,0x20,0xa2,0x9a,0xb9,0x5f,0x2e,0x28,0x4a,0x99,0x14,0x86,0xdd,0x73,0x02,0x40,0xe3,0xc8,0x0e,0x4c,0xec,0xce,0x1b,0x20,0xa9,0x06,0x31,0x86,0x9d,0xc1,0xff,0xbb,0x02,0x00,0x2e,0x8b,0xe3,0x6e,0x00,0x11,0x1c,0x7c,0x27,0xbb,0xd8,0xbb,0x3b,0x70,0x83,0xea,0x38,0x3f,0xc6,0x00,0x9a,0xf1,0xe5,0x82,0xae,0xac,0xed,0xb8,0xec,0xac,0x38,0x5d,0xab,0xa4,0x05,0x0d,0xe2,0x3e,0x10,0x92,0xef,0x93,0x96,0x66,0xa4,0xd7,0x03,0xf4,0xe4,0x52,0x3a,0x01,0x00,0x10,0xc9,0xd4,0x07,0x21,0x37,0x73,0x9b,0x7e,0x72,0xeb,0x53,0x2a,0xa6,0x00,0x26,0x48,0x4a,0xf4,0x17,0x95,0x23,0xee,0x0d,0x0d,0x18,0xc6,0x24,0x7c,0x9c,0x5b,0x0e,0xbc,0xc5,0x91,0x53,0x4e,0x20,0xf7,0xf0,0xf8,0xd0,0xfe,0xf5,0x6a,0x0f,0x10,0x00,0x10,0x7d,0x36,0xb4,0x3f,0x9c,0x54,0x55,0x59,0x30,0x70,0x2d,0x5a,0xca,0x00,0x85,0xb8,0xbd,0xaf,0xf3,0xc7,0x0b,0xd1,0x87,0x0b,0x4a,0xb4,0x4c,0x67,0x46,0x5d,0x49,0xf3,0xa0,0xaf,0x25,0x4d,0x22,0xad,0x8a,0xa2,0x5c,0xb9,0x35,0x95,0x93,0x93,0x00,0x0f,0xdf,0x98,0x36,0x0c,0xb2,0x9b,0xc5,0x5a,0xc6,0x20,0x81,0x00,0x00,0x00,0x21,0xda,0xcb,0x65,0x84,0x3a,0x7f,0xa9,0x50,0xd5,0x6f,0xc8,0x36,0x60,0xe3,0xb5,0x5c,0x30,0x5c,0xd9,0xa7,0x39,0x50,0x60,0xfe,0x0a,0x0b,0x52,0xe2,0xa2,0x58,0x8e,0x00,0x0f,0xd1,0xe6,0x26,0xed,0x00,0x10,0xfa,0x77,0xc0,0xed,0xc3,0xc0,0x00,0x00,0xe3,0x82,0xdd,0x09,0xec,0x8c,0xaf,0xc2,0x42,0x7c,0xf8,0x17,0xe9,0xaf,0xe1,0xf3,0x72,0xce,0x81,0x08,0x5a,0xb4,0xfe,0xb1,0xf3,0xde,0x1f,0x25,0xee,0x81,0x8e,0x5d,0x00,0x0f,0x2c,0xce,0xb5,0xe7,0x71,0x13,0x7b,0x2a,0x5f,0x3a,0xb5,0x68,0x73,0x59,0xa7,0x39,0xc8,0xf6,0xb8,0x02,0xc8,0x24,0xe1,0xcb,0xe6,0x42,0x7c,0xcb,0xea,0x39,0x32,0x8f,0x1c,0x58,0x4c,0x58,0x43,0x98,0xb1,0xec,0xd4,0x6c,0xda,0x21,0xa0,0x26,0x00,0x0c,0xd2,0xa2,0xb9,0x44,0x75,0x57,0xac,0x55,0xc8,0xc7,0xcb,0x00,0x00,0x00,0x8e,0x2b,0x9b,0x15,0xbe,0xcf,0xa9,0xd8,0x03,0xc8,0xa2,0xd6,0xb3,0xf1,0x98,0xdd,0x3b,0xa7,0x8f,0x0c,0xc7,0x69,0xa4,0x2e,0xc7,0x6a,0xa3,0x73,0x41,0x62,0x16,0x05,0x00,0x0c,0xa0,0xa6,0x42,0x95,0xb3,0x6e,0x72,0x81,0x70,0x10,0xc0,0x48,0x8d,0xec,0x2d,0x54,0x85,0x03,0x12,0x2a,0x96,0x25,0x71,0x83,0x42,0x00,0x0b,0x53,0x92,0x4f,0x1b,0xb8,0xbd,0xca,0xab,0xe2,0x2e,0x1d,0x64,0xf0,0xb0,0x14,0x44,0xc0,0x2e,0x64,0x00,0x0c,0x06,0xc9,0x1a,0xda,0x1d,0x5f,0x56,0x17,0x8d,0xc5,0x0b,0x00,0x00,0x00,0x7c,0x94,0x7b,0x8d,0x1f,0x5b,0x6a,0xc9,0x2b,0xc9,0x91,0x39,0x6d,0x05,0x8f,0x9a,0xdd,0x1f,0x0a,0x8d,0x08,0xc2,0xa0,0xc8,0x61,0xbb,0xe5,0x43,0x5d,0x11,0x32,0xdf,0x00,0x0b,0x65,0x99,0x78,0xfe,0xd6,0xf2,0x6a,0x1e,0xc8,0xda,0x29,0x00,0x00,0x00,0x23,0xcd,0x6d,0x2e,0x6f,0xd4,0x87,0x51,0x9c,0x3f,0xbc,0x71,0x4e,0x02,0x85,0x7f,0x25,0x35,0xa0,0x81,0xe9,0xe9,0xf2,0x52,0x7e,0x2a,0x97,0xf6,0xbb,0x00,0xa4,0x06,0x00,0x0b,0x2b,0xd5,0x36,0x7f,0x9c,0xbf,0xc2,0x70,0xae,0x3e,0x80,0x00,0x00,0x00,0x52,0x8a,0x27,0x61,0xb5,0x10,0xb8,0xd9,0xb4,0x20,0x67,0x56,0xa9,0x3b,0xb0,0xfe,0x0d,0xae,0x0c,0x4a,0x39,0x68,0x87,0x20,0x74,0xf5,0x4b,0x68,0xaa,0x3b,0xc5,0x7a,0x00,0x0a,0xb4,0xa8,0xce,0xd9,0xda,0xe1,0xd9,0xef,0xc7,0x1f,0x38,0x8c,0x04,0x00,0x37,0x03,0xed,0x3e,0x78,0x3a,0x27,0xa5,0x70,0xeb,0x03,0x27,0x22,0x86,0xcb,0x42,0xf9,0x9a,0xa8,0xc3,0xed,0x35,0x74,0xd0,0xd7,0x96,0x34,0x08,0x12,0xb7,0x10,0xf8,0x00,0x0a,0x20,0xae,0x63,0x68,0x42,0x4e,0xd9,0x98,0x68,0x8e,0x8e,0x00,0x00,0x00,0x6b,0x93,0xce,0x69,0x73,0xd7,0x5d,0x43,0x84,0x52,0x21,0xfe,0x1c,0xcd,0x3c,0x68,0x73,0x31,0xd8,0x43,0xa8,0xe8,0x9e,0xc5,0xef,0xf5,0x28,0x2d,0x03,0xf7,0x8a,0x3f,0x00,0x09,0xd7,0x32,0x8e,0xf8,0x63,0xae,0x62,0x2d,0xa9,0x11,0x7c,0x00,0x00,0x00,0x06,0x48,0xad,0x2b,0xc4,0xe2,0x5f,0xc5,0xa4,0xf2,0x29,0x16,0xfb,0x48,0xc0,0x71,0x47,0x99,0x16,0xd0,0x55,0x51,0x5e,0x3f,0xcd,0x1d,0x2c,0x5b,0xa5,0xdc,0x37,0x07,0x00,0x09,0xc8,0xb3,0xc7,0x14,0xf3,0x89,0x2b,0xb8,0xb0,0xeb,0xed,0x5b,0x5c,0x00,0x86,0xc4,0x9b,0x9b,0x33,0x89,0xbf,0x85,0x93,0x40,0xa2,0x93,0x20,0x21,0x5c,0x10,0x18,0x2d,0x33,0x67,0xe8,0x84,0xc9,0x62,0x14,0xf8,0xbd,0xde,0xc7,0x9e,0x07,0xf3,0x00,0x09,0x74,0xe6,0xdb,0x64,0x3a,0x40,0x09,0xec,0x13,0x56,0xae,0xc0,0x00,0x00,0x49,0x62,0x79,0xe9,0x74,0x75,0x94,0x75,0x20,0x20,0xf7,0xc7,0x29,0x46,0xe5,0x21,0xc6,0xb6,0xb8,0x65,0xae,0x30,0x6d,0x26,0x52,0xdd,0x99,0x03,0x1b,0xba,0xde,0x12,0x00,0x09,0x71,0xc1,0xe4,0xc5,0x02,0x72,0xc1,0xfa,0x0f,0xd1,0xba,0xe3,0x71,0xc0,0xd7,0x5c,0x12,0xef,0x9e,0xb6,0xd0,0x47,0xe5,0x6c,0xd8,0x92,0x09,0x6e,0xa2,0x65,0x0b,0x54,0xfa,0xe4,0x8a,0x2f,0xd6,0x74,0x07,0x31,0x60,0xcf,0x31,0xaa,0x1c,0x3d,0x00,0x09,0x65,0x16,0x1b,0xd2,0x92,0xb1,0x0d,0x09,0x62,0xf5,0xeb,0x80,0x00,0x00,0x37,0x22,0xce,0x29,0xa5,0x20,0x95,0x2e,0x71,0xbc,0x7d,0x98,0x35,0x31,0x38,0x3e,0x2d,0xfc,0xa6,0x4f,0x13,0x2c,0x4a,0x3a,0x15,0x92,0x1a,0x9d,0xc5,0xc7,0xe8,0x33,0x00,0x09,0x17,0xa5,0x83,0x9a,0xc2,0x26,0x59,0x0d,0xa2,0x37,0x8b,0x80,0x00,0x00,0xcd,0x0a,0x6c,0x6b,0xef,0x52,0xba,0x32,0x61,0xa6,0x5d,0x41,0x60,0xba,0xb8,0xfd,0xd0,0x6e,0x10,0xea,0x36,0xc5,0xdf,0x4d,0xab,0x95,0x3b,0x2d,0xb2,0x65,0x1c,0x87,0x00,0x08,0xf4,0x37,0x8b,0x3b,0xff,0x5d,0xee,0x49,0x3b,0xb0,0xeb,0xc5,0x8a,0x00,0x57,0x7f,0x53,0xb7,0xb8,0x94,0x01,0x10,0xcb,0x70,0x8b,0xa8,0x36,0x74,0x03,0xa2,0xed,0x47,0x0f,0x6c,0xe6,0x4b,0x6f,0x9f,0xd7,0x11,0xf2,0x30,0x19,0xe7,0xbb,0x58,0x00,0x08,0x61,0x84,0x51,0x7d,0x75,0x43,0x72,0x96,0x8d,0xd1,0x77,0x00,0x00,0x00,0x42,0xdd,0x30,0x8b,0xa9,0x1a,0xa2,0x25,0xb9,0xdd,0x0e,0xf1,0x5a,0x68,0xa8,0xdd,0x49,0xe2,0x94,0x0c,0x62,0x77,0xa4,0xbf,0xac,0x36,0x3e,0x1c,0x8b,0xf1,0x42,0x79,0x00,0x08,0x42,0xf7,0xf7,0xb7,0xbe,0xa7,0x46,0xfc,0x81,0x2e,0x99,0x55,0x80,0x00,0x03,0x47,0x19,0x65,0x5b,0xc7,0x4e,0x7a,0x6d,0x4b,0x30,0x81,0x1b,0xdb,0xb9,0x0b,0x81,0x3c,0xfe,0xf2,0x40,0x0e,0x31,0xbd,0x6f,0xa2,0xdd,0x35,0x24,0x5f,0xea,0x4d,0x00,0x08,0x3c,0xfe,0x70,0xa6,0xa1,0x1e,0xd2,0x46,0x1d,0x2b,0xae,0x80,0x03,0xe8,0x69,0x84,0x29,0x2f,0xe7,0x03,0x7d,0x28,0x05,0x9b,0x6e,0xfd,0x45,0x3d,0xd0,0x0b,0x03,0xde,0xca,0x9f,0x39,0x12,0xc1,0x02,0x7e,0xd0,0xce,0xf5,0x38,0xf5,0x23,0x02,0x00,0x07,0x9b,0xbb,0x4c,0x64,0x10,0x3e,0x04,0x45,0xdf,0xad,0x1d,0x40,0x00,0x00,0xbf,0x16,0xb7,0x43,0x96,0xf6,0xb0,0xf2,0xa3,0x33,0xc1,0x17,0xce,0x03,0x55,0xb1,0x4e,0x46,0x15,0xde,0xf5,0xf9,0x98,0x81,0x93,0xd9,0x39,0x28,0xfd,0x24,0x4d,0x3d,0x00,0x07,0x8a,0xd5,0x59,0x75,0xc7,0x13,0xac,0xa9,0xdf,0xd8,0xaf,0x1b,0x1a,0x00,0x06,0x7b,0x97,0x5e,0x64,0xf9,0x42,0x84,0x0f,0xae,0x8e,0x52,0x17,0x8e,0x81,0xb8,0xd7,0x60,0x2a,0x32,0x4d,0xc1,0xe8,0xb5,0xb9,0x60,0x81,0x43,0x94,0x25,0xeb,0x23,0x00,0x07,0x0f,0x21,0x98,0x6e,0x1c,0x9d,0x4b,0x31,0xfa,0x68,0x32,0x00,0x00,0x00,0x06,0xe1,0x6c,0xde,0x57,0x77,0xc1,0x40,0x6d,0x58,0x90,0x26,0x11,0x1b,0xfe,0x26,0x2d,0xa5,0xcd,0x64,0xd9,0x50,0xf4,0xf2,0xa4,0x89,0x42,0x5b,0xf4,0xf1,0xbe,0x1b,0x00,0x07,0x0c,0xb3,0x7d,0x43,0xa2,0xa5,0x76,0xfb,0x0b,0xa6,0x46,0xc0,0x00,0x00,0xe2,0x74,0x3d,0xab,0x59,0x87,0x11,0xe0,0xba,0xdb,0xa9,0x12,0xf2,0xf4,0x4d,0x71,0xce,0xd1,0xa2,0x55,0x82,0xf0,0xea,0xa8,0x27,0xc8,0x4b,0x97,0x2c,0x28,0x6d,0x2c,0x00,0x06,0xe0,0x66,0x7a,0x4b,0x1a,0xac,0xde,0xb4,0xd6,0xb2,0xa0,0x40,0x00,0x00,0xdc,0x64,0x60,0x29,0x56,0x1a,0xc1,0x5c,0xe6,0x32,0x11,0x0a,0x69,0x3e,0xf3,0x2f,0x98,0xae,0xf9,0x91,0x02,0x06,0xca,0x06,0x3b,0xd0,0x09,0x47,0x69,0xc4,0x99,0x3c,0x00,0x06,0x8c,0x5d,0xd1,0x3d,0x86,0x59,0x64,0xbf,0x07,0x80,0x31,0x80,0x00,0x00,0xbf,0x78,0x5a,0x32,0x9c,0xfb,0x66,0xef,0xdb,0xd3,0x55,0x5a,0x50,0xfc,0x5f,0xaf,0x4e,0x6a,0x3e,0x98,0x63,0xf9,0xa2,0xbe,0x2b,0x25,0xa7,0xf2,0x29,0x43,0xb7,0x50,0x00,0x06,0x89,0xd0,0x9f,0x38,0x00,0x4a,0xdb,0xec,0x75,0x50,0x27,0x40,0x00,0x00,0x66,0x81,0xed,0xa0,0x45,0xd8,0x11,0xd9,0x7b,0x03,0x0c,0x97,0x0a,0xaf,0x4a,0xe2,0x4b,0xf1,0x0a,0xf5,0xa9,0xc7,0x59,0xe6,0x32,0x5c,0xa3,0x67,0x24,0x26,0xf2,0xbb,0x00,0x06,0x6f,0x7f,0x6b,0x25,0x87,0x8a,0xdc,0xbb,0x28,0xba,0x65,0x00,0x00,0x00,0x1e,0xff,0xb9,0x5a,0xcb,0x05,0xed,0xcd,0x33,0xa4,0x67,0x0b,0x06,0x83,0x48,0x79,0xfd,0xa3,0xf7,0x54,0xa6,0x93,0xf1,0x31,0x83,0xc6,0x0a,0xf1,0xd3,0x6c,0x3a,0x58,0x00,0x06,0x64,0x37,0x1b,0x6e,0xc0,0xcd,0x12,0xf7,0x6e,0x7f,0x46,0x80,0x00,0x00,0x8a,0x45,0xbe,0x83,0x72,0xb6,0xae,0x5a,0xf1,0xca,0x7d,0x02,0xac,0x94,0x54,0xa8,0xb7,0x41,0x68,0x20,0x24,0xdf,0x10,0x3c,0xdf,0xf9,0x8f,0x96,0x33,0x2e,0xb1,0x41,0x00,0x06,0x4e,0x9b,0x0e,0x40,0x85,0x26,0xa1,0xdb,0x0a,0x81,0x0b,0x4d,0x5c,0x00,0x6d,0x30,0xe7,0x8d,0xb3,0x82,0x90,0x3f,0x20,0x67,0x05,0x7c,0x2b,0x27,0xd6,0xb8,0x1e,0xbe,0x72,0x94,0x89,0x07,0x13,0xad,0x82,0xd7,0xe3,0xab,0x33,0x87,0xdf,0xc6,0x00,0x06,0x23,0xb0,0xb8,0x3f,0x1d,0x29,0xdb,0x96,0x1c,0xcd,0xb6,0x00,0x00,0x00,0x56,0x94,0xd4,0x93,0xcc,0x31,0xc0,0x57,0x2a,0x3f,0x09,0x81,0x4a,0x33,0xbe,0x96,0xf9,0x00,0xde,0xf2,0xae,0xf5,0x51,0x4a,0xda,0x67,0x4f,0xfb,0x9c,0x4e,0x20,0x77,0x00,0x06,0x20,0xe9,0xe7,0x49,0x43,0xa8,0x53,0x78,0x59,0xba,0x70,0x00,0x00,0x00,0x74,0xa9,0x87,0xc8,0x75,0x32,0x67,0x1d,0x6a,0x57,0x76,0x58,0xe1,0x25,0xf7,0xb7,0xdc,0xb8,0xba,0x35,0xee,0xdc,0x17,0xc0,0x95,0xfe,0x49,0x28,0x97,0x23,0xca,0xdd,0x00,0x06,0x10,0x51,0x42,0xcc,0x83,0x03,0x26,0x31,0xbc,0x7c,0xd5,0xcf,0xc2,0x00,0x2c,0x4c,0x0c,0x4a,0xc8,0x02,0xdc,0x5f,0x05,0x0d,0x8f,0x22,0x65,0x55,0x7f,0xca,0xcb,0xb7,0x72,0xbb,0x31,0x98,0x63,0xf7,0x9c,0x6b,0x8b,0x58,0xfc,0x60,0x36,0x0f,0x00,0x06,0x10,0x1c,0xe3,0xaa,0x79,0x27,0xf1,0x77,0x58,0x1d,0x6e,0xc3,0x10,0x00,0x22,0x4e,0x11,0xa8,0x31,0xd2,0x43,0x3c,0xc8,0xda,0x47,0xdc,0xaf,0x7f,0x07,0x8e,0x9d,0x2b,0x37,0x16,0xa0,0xad,0x6f,0x85,0xe9,0x23,0x23,0x7a,0x19,0xb7,0xb4,0x9d,0x00,0x06,0x0d,0x24,0x60,0x03,0xae,0xc5,0x28,0x6b,0x90,0x17,0xd3,0x00,0x00,0x00,0xbf,0x4e,0xf3,0x7f,0xe8,0xcc,0xfd,0x38,0x45,0x00,0x78,0xe0,0xa6,0xed,0x96,0x1e,0x04,0xb4,0xe8,0xc4,0xe1,0xec,0xea,0x60,0x52,0xe0,0x54,0x35,0xac,0x0e,0xaf,0xf8,0x00,0x05,0xf0,0x40,0x47,0x5a,0x2d,0xa1,0x62,0xd7,0xa4,0x83,0x32,0xc3,0x60,0x00,0xde,0xe3,0x5b,0xaa,0x71,0x5c,0x01,0xf7,0xb3,0xbb,0x52,0xa6,0x95,0xc9,0x9d,0x9e,0x5a,0xbe,0x71,0x4b,0x86,0x84,0xfe,0x47,0xf5,0x0b,0x5c,0x64,0xf9,0x74,0x16,0xd3,0x00,0x05,0xe2,0x45,0x3c,0x65,0x66,0xb4,0x11,0x48,0x19,0xf6,0x7a,0x00,0x00,0x00,0x0c,0x6d,0x2d,0xab,0x2d,0x29,0x26,0xb7,0x4b,0x21,0x2d,0x4f,0x3b,0xa3,0x49,0x5c,0x76,0x1b,0x5f,0xc9,0xca,0xce,0xb0,0x17,0xbe,0xa1,0x48,0x26,0xc7,0xa2,0x9a,0x6a,0x00,0x05,0xbb,0x59,0x18,0x88,0x17,0x26,0x92,0xed,0xd5,0xc4,0x27,0x40,0x00,0x00,0xda,0xae,0x3a,0xd3,0xb6,0xbc,0x56,0xf0,0x5f,0xf0,0x00,0x34,0xf1,0x8e,0x56,0x3b,0x51,0x79,0x6e,0xf1,0x62,0xc6,0xf5,0xb1,0x97,0x3b,0x49,0xe3,0xd1,0x65,0xb9,0x2f,0x00,0x05,0x71,0x5a,0xf5,0x7b,0x45,0x96,0x93,0x91,0xda,0x06,0x9d,0x0f,0xd2,0xc8,0xca,0x6b,0x27,0xda,0x94,0x48,0xc1,0xd4,0x77,0xaf,0x9f,0x3b,0x11,0x2d,0xf1,0xb9,0x1b,0xa7,0xaf,0xa3,0x06,0x9b,0x6c,0xae,0x84,0xe1,0x8d,0xd6,0x44,0x73,0xa0,0x89,0x00,0x05,0x4b,0x65,0xd8,0x9b,0x68,0x46,0x45,0xf2,0xea,0x4e,0xce,0x00,0x00,0x00,0x95,0x7d,0x5b,0xa3,0x9c,0x2a,0xd7,0xf2,0xcd,0xca,0xf9,0xd7,0xa1,0xd9,0x72,0x7f,0x43,0xf8,0xc6,0xbd,0x21,0x32,0xc8,0x76,0x8e,0x60,0x07,0x65,0x52,0x80,0xc0,0x5b,0x00,0x05,0x15,0x70,0x33,0xe6,0x5c,0xfd,0xd0,0x95,0x45,0xfb,0x8d,0x80,0x00,0x00,0xda,0x37,0x89,0x5a,0x7a,0x1f,0xf1,0x26,0xca,0x69,0x28,0xdd,0x0c,0x0f,0x92,0x57,0x33,0xd9,0xc3,0x6f,0x72,0x05,0xae,0xb4,0x69,0x8d,0xf4,0xad,0x06,0x79,0x30,0x63,0x00,0x04,0xf1,0x12,0x58,0xa8,0x8e,0xee,0xa3,0xfc,0x1b,0x0c,0x3e,0x00,0x00,0x00,0x50,0x4b,0xd4,0x6a,0xa7,0x37,0x46,0x43,0x3a,0xac,0x0d,0xba,0x84,0x13,0xb3,0xb4,0x45,0x70,0x62,0x00,0xa3,0xc6,0xf7,0xfa,0x11,0xde,0x41,0xbb,0x09,0x96,0xae,0xe0,0x00,0x04,0xce,0x36,0xd0,0x47,0x8f,0x20,0x05,0xbe,0x0b,0xe8,0x17,0xa0,0x63,0x00,0x15,0xf9,0x89,0xa3,0x9b,0x6d,0xbb,0x39,0x64,0xb6,0xfd,0xec,0xaf,0xf3,0xb9,0x03,0x4c,0x6f,0x90,0xa4,0x3e,0xd4,0x7c,0x2d,0x98,0x1d,0x8b,0xd7,0x82,0xaf,0x0c,0xf1,0x00,0x04,0xc5,0x45,0xa6,0xce,0x89,0x1b,0xcc,0x44,0x23,0x4e,0x66,0xc0,0x00,0x00,0xdc,0x35,0x77,0xdb,0x49,0xb8,0xae,0x67,0x34,0x07,0x68,0xca,0xe3,0x8a,0x71,0x42,0x2c,0x5f,0x00,0x30,0xe0,0xca,0xa3,0xed,0xfe,0x30,0x02,0xa6,0xe0,0x3d,0xb0,0x78,0x00,0x04,0x89,0xd0,0x2d,0xf4,0x75,0x55,0xe9,0xf1,0x4b,0xbd,0xde,0x00,0x00,0x00,0xab,0x1f,0x62,0xb2,0x33,0x78,0xee,0x58,0x36,0xab,0xa9,0xaa,0x5e,0x5e,0x32,0x7b,0x9a,0xf0,0xe1,0xdf,0xde,0x42,0x05,0x50,0x35,0x86,0x00,0x73,0xa6,0x24,0xac,0x8a,0x00,0x04,0x2a,0xeb,0xa8,0xa4,0xdd,0x9c,0x25,0xeb,0x17,0x1a,0x93,0xb6,0xec,0x64,0xf9,0xa8,0x3d,0xf9,0x81,0x3e,0x39,0xf3,0x81,0xb9,0x55,0x53,0x6f,0x4b,0xb2,0x73,0x9b,0x83,0x23,0x23,0xb9,0x0a,0xe3,0x52,0x63,0xfe,0xe1,0xff,0x4c,0xf0,0x30,0x23,0x00,0x03,0xf8,0x7f,0x1f,0xe1,0x01,0x7a,0x3e,0xec,0x86,0x5c,0x40,0x00,0x00,0x00, 0x00};
	size_t rai_bootstrap_weights_size = sizeof(rai_bootstrap_weights) - 1;
}
